11110100 00110010 11101011 
00100001 01001100 00001101 
11011001 10101001 01110011 
11100110 11001000 10001001 
10000110 00101110 10101111 
10101011 01101001 11011111 
11001011 11100101 11001110 
00000100 01011111 01101110 

10101101 00000110 11000111 
11000101 10111110 11111011 
10100110 00010101 01010001 
10001000 10001000 01111110 
10110101 10100011 00110010 
01101101 10111110 00010001 
00111000 01010000 01010101 
00111101 01001010 10110100 

